// smartirrigation_model.h
// Modèle dummy TensorFlow Lite Micro pour test d'intégration ESP32
// Entrées : humidité_sol, ec_sol, temp_sol, ldr1, ldr2
// Sorties : [irriguer (0/1), duree_minutes (0..120), priorité (0..1)]

#pragma once

// Modèle .tflite converti en array C (float32); taille ~2,3 Ko
const unsigned char smartirrigation_model_tflite[] = {
  0x20, 0x00, 0x00, 0x00, 0x54, 0x46, 0x4c, 0x33, 0x1c, 0x00, 0x20, 0x00,
  0x0c, 0x00, 0x1c, 0x00, 0x08, 0x00, 0x00, 0x00, 0x54, 0x00, 0x00, 0x00,
  0x44, 0x00, 0x00, 0x00, 0x10, 0x00, 0x00, 0x00, 0x34, 0x00, 0x00, 0x00,
  0x0c, 0x00, 0x00, 0x00, 0x54, 0x46, 0x4c, 0x33, 0x14, 0x00, 0x00, 0x00,
  0x18, 0x00, 0x00, 0x00, 0x04, 0x00, 0x00, 0x00, 0x04, 0x00, 0x00, 0x00,
  0x18, 0x00, 0x00, 0x00, 0x01, 0x00, 0x00, 0x00, 0x01, 0x00, 0x00, 0x00,
  0x0c, 0x00, 0x00, 0x00, 0x0f, 0x00, 0x00, 0x00, 0x18, 0x00, 0x00, 0x00,
  0x0a, 0x00, 0x00, 0x00, 0x0c, 0x00, 0x00, 0x00, 0x0e, 0x00, 0x00, 0x00,
  0x10, 0x00, 0x00, 0x00, 0x03, 0x00, 0x00, 0x00, 0x05, 0x00, 0x00, 0x00,
  0x05, 0x00, 0x00, 0x00, 0x01, 0x00, 0x00, 0x00, 0x00, 0x00, 0x00, 0x00,
  0x00, 0x00, 0x80, 0x3f, 0x33, 0x33, 0x83, 0x3f, 0x66, 0x66, 0x86, 0x3f,
  0x9a, 0x99, 0x89, 0x3f, 0xcd, 0xcc, 0x8c, 0x3f, 0x00, 0x00, 0x00, 0x00,
  0x00, 0x00, 0x00, 0x00, 0x0a, 0x00, 0x00, 0x00, 0x0c, 0x00, 0x00, 0x00,
  0x0e, 0x00, 0x00, 0x00, 0x10, 0x00, 0x00, 0x00, 0x03, 0x00, 0x00, 0x00,
  0x05, 0x00, 0x00, 0x00, 0x05, 0x00, 0x00, 0x00, 0x01, 0x00, 0x00, 0x00,
  0x00, 0x00, 0x00, 0x00, 0x00, 0x00, 0x80, 0x3f, 0x33, 0x33, 0x83, 0x3f,
  0x66, 0x66, 0x86, 0x3f, 0x9a, 0x99, 0x89, 0x3f, 0xcd, 0xcc, 0x8c, 0x3f,
  0x00, 0x00, 0x00, 0x00, 0x00, 0x00, 0x00, 0x00,
  // ... (données modèle tronquées, ici dummy)
};

const unsigned int smartirrigation_model_tflite_len = sizeof(smartirrigation_model_tflite);